<unk>	0
<s>	0
</s>	0
foo	0
bar	0
s	-3.02587
.	-3.11366
▁	-3.32159
▁the	-3.77553
,	-3.97939
t	-4.01062
d	-4.3976
▁of	-4.40594
▁to	-4.45466
▁a	-4.46811
ed	-4.49319
n	-4.512
e	-4.51319
▁and	-4.54434
▁in	-4.57592
ing	-4.60934
▁is	-4.6167
y	-4.76855
i	-4.89002
o	-5.07087
▁I	-5.07633
al	-5.08712
▁it	-5.09683
a	-5.11793
r	-5.18685
▁But	-5.21347
g	-5.22857
▁A	-5.23651
er	-5.26369
ar	-5.29483
▁that	-5.3157
re	-5.33855
?	-5.35286
c	-5.36429
▁for	-5.36799
▁be	-5.39205
▁are	-5.40647
k	-5.40858
m	-5.41651
u	-5.4357
’	-5.46518
▁And	-5.47562
▁c	-5.4866
ly	-5.49343
▁this	-5.49801
or	-5.51172
▁you	-5.54847
l	-5.57126
▁The	-5.62529
in	-5.63741
▁was	-5.64104
f	-5.65211
p	-5.66264
ri	-5.67531
le	-5.68846
▁b	-5.70859
▁re	-5.71287
'	-5.71577
▁S	-5.77454
▁not	-5.77625
h	-5.78959
▁f	-5.81496
b	-5.8314
▁have	-5.8349
▁on	-5.83705
ra	-5.8897
an	-5.89651
ation	-5.92243
▁with	-5.93176
es	-5.93242
▁he	-5.93651
il	-5.95015
ur	-5.95055
-	-5.95137
th	-5.96504
w	-5.96839
it	-5.97403
ro	-5.99156
▁will	-5.99777
▁has	-6.02827
▁B	-6.04752
ent	-6.08285
▁do	-6.10226
▁st	-6.10705
ce	-6.15129
▁we	-6.17684
ir	-6.19955
▁C	-6.20868
ad	-6.21374
on	-6.21595
▁so	-6.21911
ch	-6.21996
at	-6.23293
ment	-6.24212
▁w	-6.24603
la	-6.25513
ter	-6.25663
ic	-6.2596
▁de	-6.26292
se	-6.26757
li	-6.27081
en	-6.27797
▁P	-6.28492
!	-6.29521
▁can	-6.30761
▁all	-6.31334
▁me	-6.31882
▁con	-6.35946
▁p	-6.37731
▁All	-6.38379
▁He	-6.40313
ll	-6.4047
▁at	-6.42001
▁by	-6.42549
te	-6.43299
am	-6.44792
el	-6.45312
as	-6.46026
▁as	-6.46256
▁T	-6.46623
ut	-6.47369
ve	-6.47757
▁from	-6.48662
un	-6.51425
▁an	-6.51662
ha	-6.51875
▁been	-6.54433
et	-6.55215
▁your	-6.5604
:	-6.56703
im	-6.57495
▁were	-6.58078
▁what	-6.58256
▁also	-6.59274
ion	-6.60101
est	-6.60253
▁no	-6.61502
▁1	-6.62858
ne	-6.63965
▁e	-6.64277
▁there	-6.65895
0	-6.66286
5	-6.66346
x	-6.67372
ers	-6.71301
ate	-6.73455
▁said	-6.74247
▁It	-6.74766
▁time	-6.7683
▁fa	-6.77137
id	-6.77371
us	-6.77819
v	-6.7789
▁M	-6.78787
)	-6.78994
▁g	-6.79518
ol	-6.79546
▁D	-6.7961
▁one	-6.79712
qu	-6.79952
ci	-6.8068
▁mo	-6.8085
ive	-6.80951
▁his	-6.81091
I	-6.81167
▁This	-6.81266
age	-6.81364
▁pro	-6.82027
vi	-6.82471
1	-6.82483
▁or	-6.82909
ies	-6.83082
lo	-6.83282
▁“	-6.83502
ity	-6.83697
▁ma	-6.83945
▁know	-6.84125
A	-6.84277
▁So	-6.84314
me	-6.84484
▁India	-6.84542
▁about	-6.85667
ul	-6.85737
▁they	-6.86346
ist	-6.87176
▁O	-6.88617
▁Add	-6.89069
▁G	-6.89868
▁R	-6.90294
ver	-6.90408
▁very	-6.90479
▁H	-6.90557
ow	-6.9062
ma	-6.91106
▁tr	-6.91183
ck	-6.91405
ction	-6.9152
▁them	-6.91691
▁people	-6.92109
he	-6.93594
▁d	-6.9446
ge	-6.94581
▁F	-6.94995
▁E	-6.959
hi	-6.96212
all	-6.97392
▁(	-6.97444
▁W	-6.97856
▁Are	-6.98636
um	-6.98666
▁ex	-6.99778
▁work	-7.00579
▁K	-7.00891
▁had	-7.01591
ru	-7.01869
ance	-7.0189
ti	-7.02203
wa	-7.02231
end	-7.02702
▁In	-7.03536
▁com	-7.04032
act	-7.04481
▁lo	-7.05029
op	-7.05187
▁co	-7.05391
▁us	-7.0595
▁any	-7.06043
z	-7.06734
▁2	-7.06803
ab	-7.07304
▁my	-7.07708
om	-7.08009
ry	-7.08028
ine	-7.084
ated	-7.08489
▁pa	-7.08635
▁other	-7.08665
▁"	-7.1041
▁out	-7.10864
ant	-7.12372
ence	-7.12885
▁We	-7.13278
▁how	-7.14275
▁go	-7.1429
ther	-7.14331
▁di	-7.14661
ho	-7.15986
j	-7.16404
2	-7.17529
▁more	-7.17533
▁need	-7.18209
6	-7.18578
and	-7.19135
ap	-7.19223
ish	-7.19476
”	-7.19743
▁who	-7.20004
S	-7.20416
ted	-7.20945
po	-7.2108
▁don	-7.21158
mo	-7.21441
▁po	-7.21467
able	-7.21483
8	-7.21505
mp	-7.21579
▁him	-7.22417
va	-7.22534
▁see	-7.22829
ta	-7.2305
▁up	-7.23118
ect	-7.23511
▁should	-7.23608
ide	-7.23688
tion	-7.24563
▁their	-7.24798
▁sh	-7.25039
▁like	-7.25731
▁There	-7.25736
our	-7.25813
▁some	-7.26943
7	-7.27274
▁part	-7.27714
na	-7.28811
▁which	-7.29173
ight	-7.3004
one	-7.30229
L	-7.31328
M	-7.31666
▁film	-7.31878
▁these	-7.32164
▁h	-7.32544
pe	-7.32947
C	-7.33193
▁here	-7.33252
pp	-7.33498
▁water	-7.33676
ak	-7.34259
▁good	-7.34399
▁car	-7.34782
▁At	-7.3526
▁sp	-7.35275
ful	-7.35276
▁new	-7.357
▁thing	-7.36389
▁her	-7.36618
▁well	-7.37437
▁just	-7.37636
▁As	-7.38156
ture	-7.38161
▁first	-7.38306
iv	-7.39171
▁N	-7.39529
▁en	-7.39547
T	-7.39956
▁app	-7.40034
lu	-7.40635
min	-7.40678
ice	-7.40714
ition	-7.40923
ctor	-7.41045
up	-7.4109
P	-7.41106
▁un	-7.41736
▁get	-7.41833
▁Ma	-7.42059
▁per	-7.42407
▁happen	-7.42436
co	-7.42581
vo	-7.42892
▁two	-7.43055
old	-7.43072
"	-7.43182
▁3	-7.44028
9	-7.44061
▁over	-7.44143
ous	-7.45177
4	-7.45445
▁too	-7.45856
▁say	-7.45986
▁pre	-7.45995
ep	-7.46322
▁our	-7.46605
▁J	-7.47047
▁comp	-7.47133
ke	-7.47404
▁dis	-7.47997
▁police	-7.48165
▁does	-7.48535
od	-7.48737
▁Minister	-7.48783
▁day	-7.49004
▁After	-7.49609
▁Be	-7.49801
▁An	-7.50233
▁case	-7.50399
D	-7.50635
00	-7.50714
▁would	-7.51374
3	-7.5159
ical	-7.51911
han	-7.52504
▁What	-7.53246
B	-7.54027
▁into	-7.54129
▁even	-7.54355
lic	-7.54667
▁really	-7.54773
▁did	-7.55137
ff	-7.56278
▁state	-7.56586
gra	-7.5667
fi	-7.57527
▁No	-7.57941
▁Con	-7.58681
▁want	-7.59678
mit	-7.59823
ary	-7.6026
▁government	-7.61021
▁but	-7.61118
▁many	-7.61281
▁Ra	-7.61604
ough	-7.61636
mon	-7.61799
▁life	-7.62525
av	-7.6343
gu	-7.63923
if	-7.6463
▁They	-7.65297
▁if	-7.65345
▁only	-7.65528
▁Both	-7.65769
ach	-7.65907
▁question	-7.66174
▁think	-7.66268
▁V	-7.66293
par	-7.66495
tain	-7.67062
ia	-7.67274
▁she	-7.68085
▁could	-7.6817
ran	-7.68444
▁20	-7.6846
to	-7.68473
▁help	-7.68579
▁Any	-7.68645
▁mi	-7.69047
▁You	-7.69252
▁bo	-7.69263
tic	-7.69778
▁than	-7.69891
man	-7.70179
har	-7.70218
mer	-7.70482
ize	-7.70593
cu	-7.70974
du	-7.71557
▁give	-7.71726
ub	-7.72197
O	-7.72378
▁under	-7.72548
▁Co	-7.72554
▁U	-7.72683
▁much	-7.72796
▁going	-7.7283
em	-7.73402
▁sc	-7.73458
▁problem	-7.73762
ten	-7.73879
▁right	-7.73919
▁ho	-7.74377
▁love	-7.74382
▁Indian	-7.74655
▁vi	-7.7471
▁way	-7.75161
▁Because	-7.75192
▁man	-7.75397
sion	-7.7545
▁Com	-7.75642
und	-7.75689
mb	-7.75906
▁lot	-7.76286
form	-7.77165
▁Re	-7.77452
ever	-7.77722
▁take	-7.7789
body	-7.7818
bu	-7.78747
▁change	-7.79264
E	-7.79875
▁person	-7.80182
ni	-7.80485
▁such	-7.80494
ven	-7.80794
R	-7.8101
▁That	-7.81319
▁same	-7.81371
▁important	-7.81636
▁Tamil	-7.81845
▁world	-7.82154
ag	-7.82727
▁am	-7.83031
▁after	-7.83316
▁4	-7.83505
▁make	-7.83738
str	-7.83818
ang	-7.84303
▁use	-7.84539
ise	-7.84896
ward	-7.85586
▁different	-7.85604
ga	-7.85794
N	-7.85947
▁look	-7.8615
▁Mo	-7.86213
ign	-7.8785
▁God	-7.87879
Y	-7.88035
W	-7.88076
▁place	-7.88495
▁high	-7.88626
ual	-7.88818
▁great	-7.88952
▁start	-7.89185
▁lead	-7.89499
▁come	-7.8972
port	-7.89785
ick	-7.90369
▁fl	-7.90452
▁made	-7.90677
▁most	-7.90786
au	-7.9086
round	-7.91302
rate	-7.9137
ath	-7.92313
▁Also	-7.9239
▁exp	-7.92603
▁add	-7.93129
che	-7.94065
fer	-7.94195
uc	-7.96
ian	-7.96023
cul	-7.96072
▁when	-7.96234
▁health	-7.96313
▁La	-7.97526
▁against	-7.97687
▁never	-7.98647
▁play	-7.98736
ya	-7.98767
▁didn	-7.99105
ph	-7.99257
ness	-7.99265
ities	-7.99361
▁read	-7.99673
▁must	-8.00136
""	-8.00504
▁country	-8.00662
▁Sh	-8.01064
▁Ja	-8.01105
ju	-8.01141
pa	-8.02113
▁number	-8.0253
▁plan	-8.03368
land	-8.03496
;	-8.04488
▁She	-8.04916
ative	-8.06243
pri	-8.06754
line	-8.07281
▁still	-8.07449
▁children	-8.07857
ating	-8.08478
▁few	-8.08732
▁every	-8.08905
▁those	-8.09347
▁why	-8.10565
▁long	-8.10816
com	-8.12169
day	-8.12314
▁mix	-8.12842
▁De	-8.13119
▁between	-8.13695
▁result	-8.13972
▁back	-8.14359
▁direct	-8.14527
less	-8.14973
▁issue	-8.15491
member	-8.15942
▁Man	-8.16007
▁Ar	-8.16481
▁sea	-8.16542
▁live	-8.16548
▁done	-8.16723
▁through	-8.16762
▁For	-8.16875
▁won	-8.17277
▁family	-8.17443
▁Could	-8.17673
ook	-8.18183
▁Do	-8.19122
▁cent	-8.19158
▁follow	-8.19525
ash	-8.196
▁Ka	-8.20413
▁yet	-8.21286
▁year	-8.21342
▁10	-8.21552
▁point	-8.22182
▁home	-8.22396
▁answer	-8.23848
serv	-8.23848
▁three	-8.24102
▁mean	-8.24146
▁name	-8.24914
ja	-8.25418
▁taken	-8.25476
ious	-8.25673
▁Raj	-8.25706
▁Th	-8.26207
▁Congress	-8.26366
▁large	-8.26631
▁Modi	-8.26881
▁Prime	-8.2708
▁State	-8.27217
▁reason	-8.27241
▁sub	-8.27377
/	-8.28108
H	-8.28124
▁talk	-8.28763
▁provide	-8.29312
▁How	-8.29458
▁Na	-8.29561
▁Police	-8.29822
V	-8.29968
▁Me	-8.30144
▁again	-8.30259
▁both	-8.30278
▁information	-8.30402
ible	-8.30439
ush	-8.30768
▁present	-8.30779
▁BJP	-8.30826
▁trans	-8.3091
▁win	-8.3211
▁came	-8.32371
▁Le	-8.3296
▁report	-8.33018
▁friend	-8.33063
▁Pa	-8.33571
▁women	-8.33693
▁oil	-8.33909
▁before	-8.34957
▁always	-8.35313
G	-8.35433
light	-8.3548
▁Nadu	-8.36755
▁thank	-8.37078
▁19	-8.37127
▁let	-8.37437
▁product	-8.37688
▁develop	-8.39182
▁hand	-8.39458
▁salt	-8.39687
▁available	-8.39882
▁big	-8.40124
▁house	-8.4026
K	-8.40368
▁Government	-8.40434
▁something	-8.40454
▁small	-8.40519
▁However	-8.40802
▁Vi	-8.40859
spec	-8.41528
▁movie	-8.41528
▁own	-8.41965
▁incident	-8.42594
▁hospital	-8.42647
▁during	-8.4339
▁down	-8.43775
▁cause	-8.43822
▁example	-8.4404
▁another	-8.44577
▁increase	-8.44691
▁understand	-8.44919
▁price	-8.45101
▁include	-8.45657
▁complete	-8.45696
▁interest	-8.45752
▁"""	-8.47137
▁require	-8.47553
▁book	-8.47818
▁current	-8.48152
▁His	-8.48223
▁each	-8.48615
▁until	-8.48641
▁pass	-8.49176
▁show	-8.49344
▁easy	-8.49486
▁power	-8.49704
▁found	-8.50473
press	-8.50474
F	-8.50834
▁thought	-8.51002
▁Delhi	-8.51724
▁last	-8.51943
▁Lo	-8.52058
▁because	-8.52267
▁anything	-8.52282
▁tell	-8.53131
▁US	-8.53158
▁true	-8.53338
▁experience	-8.53409
▁district	-8.53552
ship	-8.53726
▁next	-8.53973
▁support	-8.54259
▁continue	-8.54324
▁matter	-8.54574
▁child	-8.54859
The	-8.55082
▁school	-8.55173
▁set	-8.55384
▁team	-8.55728
▁sure	-8.56
▁expect	-8.56364
▁cannot	-8.56668
▁tea	-8.56886
20	-8.57092
▁total	-8.5742
▁believe	-8.57646
▁find	-8.5778
▁crore	-8.58041
▁cost	-8.5811
▁free	-8.58191
▁learn	-8.58425
▁little	-8.58571
U	-8.58945
mission	-8.59228
▁everything	-8.59622
stitut	-8.59623
▁arrested	-8.59632
▁post	-8.59822
▁become	-8.59987
▁while	-8.60146
▁President	-8.60207
▁story	-8.60468
▁several	-8.60619
▁role	-8.60651
▁second	-8.60938
▁disease	-8.61007
(	-8.61027
▁nothing	-8.62182
‘	-8.62698
▁feel	-8.62965
▁death	-8.62968
▁service	-8.63162
▁lakh	-8.63672
▁kind	-8.64038
▁grow	-8.64458
▁actually	-8.64604
▁law	-8.6594
▁hard	-8.65976
▁Chief	-8.66457
▁list	-8.66585
▁remain	-8.6708
▁asked	-8.67384
▁process	-8.67907
▁New	-8.67976
▁situation	-8.68158
▁money	-8.68349
▁injured	-8.68473
ism	-8.6942
▁possible	-8.69462
▁pepper	-8.69597
▁least	-8.69793
organ	-8.69879
▁system	-8.69905
▁order	-8.70443
▁release	-8.70445
▁election	-8.70677
▁human	-8.71037
▁business	-8.71089
▁close	-8.71392
▁ob	-8.71785
▁keep	-8.71797
▁consider	-8.72616
▁official	-8.72727
▁social	-8.72853
▁job	-8.73483
▁Why	-8.73656
▁success	-8.73781
▁month	-8.73874
▁meeting	-8.74156
▁regard	-8.74779
▁later	-8.7536
▁Singh	-8.75715
▁together	-8.75826
▁happy	-8.75906
▁decision	-8.76097
ency	-8.76296
▁effect	-8.76635
▁everyone	-8.76653
▁room	-8.76713
%	-8.76937
nder	-8.77344
▁special	-8.77602
▁word	-8.77947
▁fact	-8.77992
▁minister	-8.78792
▁sugar	-8.78864
▁open	-8.79645
▁America	-8.79931
▁Court	-8.80082
▁Gandhi	-8.80316
▁idea	-8.80502
▁video	-8.80569
▁mind	-8.8058
▁better	-8.80633
▁court	-8.81256
▁already	-8.81624
▁further	-8.82117
▁registered	-8.82149
▁investigation	-8.82235
▁blood	-8.82421
▁begin	-8.82609
▁heart	-8.83153
▁Pakistan	-8.83228
▁discuss	-8.83249
▁difficult	-8.83401
cept	-8.83617
▁attend	-8.83736
▁detail	-8.83946
▁wrong	-8.84425
▁leave	-8.84659
▁Narendra	-8.84764
▁level	-8.85005
▁major	-8.85302
▁affect	-8.85584
▁rain	-8.85808
▁According	-8.85954
▁music	-8.86159
▁condition	-8.86442
▁color	-8.86563
▁Actually	-8.86894
▁due	-8.873
▁simple	-8.87487
▁including	-8.87513
▁woman	-8.87689
▁among	-8.87805
▁various	-8.88221
▁train	-8.887
▁attack	-8.90215
▁away	-8.90223
&	-8.90254
▁photo	-8.905
▁produce	-8.90706
▁necessary	-8.90941
▁National	-8.91938
▁countries	-8.91963
▁quite	-8.92161
▁garlic	-8.92243
▁write	-8.9254
▁else	-8.92997
▁clear	-8.93304
▁certain	-8.93745
▁fire	-8.94343
▁visit	-8.9458
▁Another	-8.94707
▁turn	-8.94847
▁political	-8.9557
▁Chennai	-8.95816
▁might	-8.95821
▁public	-8.95999
ified	-8.9628
▁media	-8.98001
▁week	-8.98098
▁beautiful	-8.98256
▁Jesus	-8.98323
▁Christ	-8.98328
▁wife	-8.98755
▁project	-8.98769
▁full	-8.99334
▁Pradesh	-8.99422
▁invest	-8.99444
▁girl	-8.99462
▁create	-8.99741
▁Every	-9.00212
▁agree	-9.00553
▁Allah	-9.0102
▁occur	-9.01052
▁parents	-9.01241
▁picture	-9.01292
▁course	-9.0131
▁type	-9.01539
▁program	-9.01559
east	-9.01842
▁language	-9.01967
▁percent	-9.02972
▁group	-9.04198
▁rule	-9.04259
▁control	-9.04415
▁join	-9.04695
▁conduct	-9.04991
▁safe	-9.0525
▁value	-9.05738
▁speak	-9.05866
▁education	-9.05908
▁since	-9.06262
▁short	-9.06391
▁benefit	-9.06493
▁across	-9.06532
▁green	-9.06817
▁respect	-9.06821
."""	-9.06981
▁truth	-9.07584
▁China	-9.08356
▁either	-9.08443
▁class	-9.08511
▁left	-9.08961
▁decide	-9.09397
▁Currently	-9.0946
▁phone	-9.09894
▁along	-9.10191
Q	-9.10212
▁amount	-9.10375
▁huge	-9.10402
▁accept	-9.10414
▁immediately	-9.10668
▁design	-9.10701
▁president	-9.10839
▁daughter	-9.11379
▁million	-9.11413
▁participate	-9.11642
▁feature	-9.11915
Z	-9.12096
▁employ	-9.12113
▁chief	-9.12113
▁drink	-9.12453
▁protect	-9.1251
▁appear	-9.12782
▁clean	-9.1283
▁Kumar	-9.12989
▁game	-9.14011
▁Union	-9.14606
▁South	-9.14731
▁account	-9.15743
▁temple	-9.1582
▁Avoid	-9.16193
▁company	-9.16478
▁below	-9.16605
▁market	-9.16751
▁World	-9.17246
▁accident	-9.17473
▁future	-9.17586
▁data	-9.18145
▁strong	-9.19359
▁When	-9.19383
ology	-9.19556
▁general	-9.19607
▁equal	-9.20705
▁solution	-9.20964
▁Lord	-9.21122
▁People	-9.21397
▁concern	-9.21398
▁milk	-9.21707
▁view	-9.23076
▁please	-9.23305
▁farmers	-9.23489
▁return	-9.23592
▁complaint	-9.23627
▁particular	-9.24279
▁address	-9.24499
▁difference	-9.24503
▁taking	-9.24566
▁charge	-9.24997
▁suffer	-9.25039
X	-9.25368
▁Australia	-9.25406
▁United	-9.2691
▁Again	-9.27016
▁security	-9.27266
▁history	-9.27982
▁study	-9.28107
▁serious	-9.28469
▁launch	-9.28652
▁pretty	-9.28682
▁entire	-9.287
▁spoke	-9.29067
▁effort	-9.29307
▁About	-9.29662
▁Kerala	-9.2981
▁High	-9.29857
▁Besides	-9.30068
▁period	-9.30606
▁village	-9.30913
▁powder	-9.31342
▁author	-9.32017
▁Vijay	-9.32451
▁Below	-9.32622
▁strength	-9.32623
ability	-9.3286
▁having	-9.33127
▁reduce	-9.33247
▁couple	-9.33349
▁material	-9.33808
▁yourself	-9.3387
▁natural	-9.34024
▁Although	-9.34065
▁candidate	-9.34685
▁living	-9.35009
▁announced	-9.3557
▁patient	-9.35667
▁English	-9.36147
▁investigating	-9.37459
▁Mumbai	-9.37513
▁Available	-9.3809
▁relationship	-9.38703
▁achieve	-9.38844
▁became	-9.38899
▁research	-9.39104
J	-9.39457
▁travel	-9.39465
▁private	-9.39592
▁field	-9.39757
▁Bengal	-9.39822
▁character	-9.39865
▁enjoy	-9.41538
▁pressure	-9.4175
▁individual	-9.41916
▁measure	-9.41951
▁Karnataka	-9.42486
▁written	-9.42509
q	-9.70074
“	-11.4251
